000 000 000 000 000 000 000 000 000 000 000 000
000 000 000 000 000 000 000 000 000 000 000 000
000 000 000 000 000 000 000 000 000 013 008 000
000 000 000 000 000 000 000 000 000 014 000 000
000 000 000 000 000 000 000 000 010 000 000 000
000 000 000 000 000 000 000 00a 006 000 000 000
000 000 000 000 000 000 000 005 000 000 000 000
000 000 000 000 000 000 010 000 000 000 000 000
000 000 000 000 000 000 00c 000 000 000 000 000
000 000 000 000 000 00a 000 000 000 000 000 000
000 000 000 000 006 005 000 000 000 000 000 000
000 000 000 000 015 000 000 000 000 000 000 000
