00c 00c 00c 00c 00c 00c 00c 05d 0c8 09e 01c 00c
00c 00c 00c 00c 00c 00c 036 141 1b0 13f 057 00c
00c 00c 00c 00c 00c 015 0ba 102 104 103 07f 00c
00c 00c 00c 00c 00c 05e 112 115 086 095 062 00c
00c 00c 00c 00c 024 0ea 0ff 097 0a8 07a 00f 00c
00c 00c 00c 011 0d3 11d 0c8 099 09e 02c 00c 00c
00c 00c 00c 061 119 131 0bc 0a9 04f 00c 00c 00c
00c 00c 00c 0d5 0fb 0c0 0bb 09a 00e 00c 00c 00c
00c 00c 064 0df 0f5 0d5 0aa 046 00c 00c 00c 00c
00c 00c 089 0cf 0b9 0d4 08c 00d 00c 00c 00c 00c
00c 00c 01d 09b 102 0e8 041 00c 00c 00c 00c 00c
00c 00c 000 000 07c 0ab 00c 00c 00c 00c 00c 00c
